const unsigned char gesture_model_tflite[] = {28,0,0,0,84,70,76,51,20,0,32,0,28,0,24,0,20,0,16,0,12,0,0,0,8,0,4,0,20,0,0,0,28,0,0,0,148,0,0,0,236,0,0,0,24,8,0,0,40,8,0,0,52,14,0,0,3,0,0,0,1,0,0,0,16,0,0,0,0,0,10,0,16,0,12,0,8,0,4,0,10,0,0,0,12,0,0,0,28,0,0,0,60,0,0,0,15,0,0,0,115,101,114,118,105,110,103,95,100,101,102,97,117,108,116,0,1,0,0,0,4,0,0,0,148,255,255,255,10,0,0,0,4,0,0,0,8,0,0,0,111,117,116,112,117,116,95,48,0,0,0,0,1,0,0,0,4,0,0,0,206,247,255,255,4,0,0,0,11,0,0,0,105,110,112,117,116,95,108,97,121,101,114,0,2,0,0,0,52,0,0,0,4,0,0,0,220,255,255,255,13,0,0,0,4,0,0,0,19,0,0,0,67,79,78,86,69,82,83,73,79,78,95,77,69,84,65,68,65,84,65,0,8,0,12,0,8,0,4,0,8,0,0,0,12,0,0,0,4,0,0,0,19,0,0,0,109,105,110,95,114,117,110,116,105,109,101,95,118,101,114,115,105,111,110,0,14,0,0,0,40,7,0,0,32,7,0,0,208,6,0,0,180,6,0,0,228,5,0,0,212,1,0,0,4,1,0,0,180,0,0,0,172,0,0,0,164,0,0,0,156,0,0,0,148,0,0,0,116,0,0,0,4,0,0,0,126,248,255,255,4,0,0,0,96,0,0,0,16,0,0,0,0,0,0,0,8,0,14,0,8,0,4,0,8,0,0,0,16,0,0,0,36,0,0,0,0,0,6,0,8,0,4,0,6,0,0,0,4,0,0,0,0,0,0,0,12,0,24,0,20,0,16,0,12,0,4,0,12,0,0,0,88,57,70,56,181,71,53,3,2,0,0,0,2,0,0,0,4,0,0,0,6,0,0,0,50,46,50,49,46,48,0,0,234,248,255,255,4,0,0,0,16,0,0,0,49,46,53,46,48,0,0,0,0,0,0,0,0,0,0,0,168,243,255,255,172,243,255,255,176,243,255,255,180,243,255,255,22,249,255,255,4,0,0,0,64,0,0,0,0,0,0,0,87,57,20,62,69,232,21,62,254,144,106,188,183,81,206,61,182,69,245,61,8,236,64,62,226,77,62,189,12,85,213,188,14,95,106,62,208,182,79,62,185,29,249,61,8,229,42,62,26,208,112,62,239,100,111,62,150,212,69,62,98,249,255,255,4,0,0,0,192,0,0,0,112,64,8,61,210,144,170,62,201,246,1,63,160,218,75,63,226,189,36,191,248,143,4,62,197,241,94,62,104,92,136,62,168,128,7,191,224,213,1,63,82,140,28,188,26,255,140,62,5,203,83,191,74,144,144,190,250,243,239,61,85,249,59,63,106,45,86,61,140,207,21,62,229,8,66,63,234,134,25,191,51,122,10,62,49,142,182,189,86,138,254,190,81,23,170,62,68,124,206,188,67,108,166,62,154,96,235,61,24,169,235,190,255,90,9,63,58,228,173,190,146,169,233,190,207,172,1,62,126,186,134,62,210,3,77,62,226,61,8,190,169,157,169,190,4,251,18,63,118,128,3,191,238,254,78,62,182,7,64,191,51,114,69,62,203,163,250,189,188,79,168,190,225,219,229,61,118,74,91,190,153,35,77,191,242,57,130,190,188,219,112,62,46,250,255,255,4,0,0,0,0,4,0,0,246,105,67,62,92,74,221,190,73,29,176,190,166,2,88,62,64,25,171,62,88,216,182,189,197,52,152,62,67,180,49,189,75,213,129,61,1,87,65,62,208,250,188,190,220,222,163,190,254,159,68,62,50,200,156,62,244,79,168,189,31,157,159,62,75,47,132,190,94,5,35,62,102,194,200,60,164,190,200,62,1,144,84,62,10,59,157,189,173,119,37,190,101,200,94,190,187,180,184,190,30,33,25,63,119,212,130,62,160,236,179,189,8,174,217,190,134,147,37,63,175,246,188,62,51,41,226,61,116,153,149,190,127,22,25,63,217,7,92,189,243,97,44,190,1,96,45,63,125,235,125,62,244,117,15,63,54,59,130,190,48,170,137,190,42,90,129,190,196,74,174,62,235,27,135,62,6,131,8,63,227,211,171,61,46,131,85,189,77,236,32,62,112,242,31,189,58,62,9,63,255,19,54,61,58,62,169,62,75,41,78,190,14,24,42,63,120,114,46,63,176,51,58,190,233,249,214,62,22,63,89,190,5,23,13,190,65,67,31,62,77,50,194,62,47,89,200,62,33,120,103,189,31,250,138,190,155,128,143,62,56,208,237,188,125,188,136,62,242,104,134,190,153,163,156,62,157,22,148,190,179,226,231,190,200,128,92,190,109,199,160,62,51,209,80,62,219,78,120,190,218,153,89,61,207,18,207,62,81,203,11,191,32,71,188,60,212,123,4,191,112,156,87,189,103,178,197,190,19,93,114,62,224,170,125,60,247,58,216,61,88,61,252,189,132,166,226,61,150,8,105,62,240,145,171,190,42,22,204,61,255,9,173,190,25,193,151,190,226,152,94,62,208,72,79,190,30,95,99,189,48,226,163,60,155,33,196,62,240,160,17,62,37,124,132,62,94,18,147,62,173,39,161,61,234,112,76,189,23,82,176,190,134,178,89,190,115,172,182,190,36,23,24,63,196,93,154,190,220,102,118,190,73,141,166,189,37,141,1,190,188,148,11,63,204,85,41,191,218,27,128,190,143,36,117,190,83,43,212,62,193,223,18,191,124,34,14,191,80,76,54,190,142,215,248,61,194,117,31,62,162,51,117,62,112,204,50,63,9,54,192,190,39,0,139,62,151,78,147,61,246,116,28,63,185,119,61,62,203,67,21,191,243,38,172,190,40,88,99,62,221,155,229,188,173,25,225,60,6,144,59,62,160,93,113,62,25,33,25,190,99,178,61,62,79,196,133,59,21,163,144,62,27,32,29,62,93,111,31,191,105,173,19,62,95,86,184,62,228,0,15,63,189,119,10,63,40,25,218,190,159,117,193,190,210,248,24,63,250,152,28,62,137,214,189,190,255,22,144,189,154,126,85,62,154,223,179,189,142,48,176,61,116,249,211,62,148,234,71,190,63,180,0,189,13,16,26,191,178,121,137,62,34,33,84,190,12,235,99,190,17,210,143,62,203,44,211,62,215,19,54,63,49,54,207,189,133,174,15,191,97,210,161,62,174,78,179,62,13,66,137,62,225,245,142,188,62,223,107,61,189,185,249,189,236,209,231,188,249,219,32,62,205,75,97,62,226,12,198,62,225,2,119,190,43,255,212,62,31,53,9,190,150,127,0,191,221,25,195,190,223,101,170,62,130,220,226,60,255,186,139,62,137,30,31,61,60,56,148,189,129,98,217,62,241,55,24,63,40,29,136,190,197,15,85,61,228,215,186,62,190,122,143,189,217,68,243,62,82,84,115,62,194,62,62,190,21,111,29,63,181,103,137,61,184,201,204,190,78,72,36,190,225,41,13,190,143,154,163,190,100,17,8,58,233,244,39,63,139,241,217,190,42,211,19,63,37,29,45,191,31,222,209,189,84,63,249,62,103,135,168,190,216,27,6,189,27,230,155,62,69,157,218,190,202,40,197,190,227,209,8,63,91,185,241,190,87,185,167,61,224,118,152,190,48,199,47,62,19,55,124,62,21,150,55,62,53,252,17,190,149,10,170,62,233,156,251,62,149,14,229,62,73,63,253,62,189,90,207,62,11,43,28,63,201,10,177,189,162,125,0,189,98,103,11,191,35,242,113,62,143,93,254,62,200,28,140,190,94,245,204,190,43,206,101,190,217,69,183,190,157,20,193,62,161,121,131,62,194,220,33,190,190,22,32,190,249,24,91,190,68,50,142,190,155,194,155,60,145,105,204,62,198,129,210,190,91,230,108,62,162,49,244,190,8,83,166,59,206,135,144,62,136,9,1,190,40,95,125,61,28,218,92,190,128,134,205,62,149,60,240,189,7,8,13,189,9,128,34,190,149,132,118,61,58,254,255,255,4,0,0,0,192,0,0,0,58,50,120,62,187,209,127,62,193,84,66,191,237,149,66,189,112,238,176,190,190,238,182,190,130,35,55,63,13,73,79,63,90,96,218,190,133,206,69,63,17,29,15,63,212,130,14,59,225,164,6,63,115,112,225,189,164,219,141,190,99,194,223,61,231,113,224,190,102,195,66,191,141,109,209,62,72,148,180,62,26,31,134,190,192,10,94,189,220,108,178,190,11,205,110,190,137,8,2,191,191,159,87,61,225,214,17,63,217,104,17,62,244,17,124,190,213,250,46,191,64,83,205,62,131,223,168,190,88,204,50,62,179,121,254,62,184,160,138,190,13,122,176,190,192,182,217,57,23,19,225,61,14,110,97,61,60,224,110,62,96,80,56,60,153,223,93,190,214,109,36,189,89,205,49,63,71,6,42,191,88,155,4,63,69,55,73,190,227,0,202,190,6,255,255,255,4,0,0,0,12,0,0,0,158,208,228,188,80,97,233,61,20,156,206,189,30,255,255,255,4,0,0,0,64,0,0,0,140,78,158,189,21,169,26,62,67,217,194,61,59,211,135,62,11,94,208,189,187,0,22,189,103,16,135,61,186,40,1,189,196,108,197,189,189,22,21,62,88,195,93,62,250,227,143,61,106,28,34,62,194,23,32,62,193,22,30,62,134,80,154,61,12,250,255,255,16,250,255,255,15,0,0,0,77,76,73,82,32,67,111,110,118,101,114,116,101,100,46,0,1,0,0,0,20,0,0,0,0,0,14,0,24,0,20,0,16,0,12,0,8,0,4,0,14,0,0,0,20,0,0,0,28,0,0,0,52,1,0,0,56,1,0,0,60,1,0,0,4,0,0,0,109,97,105,110,0,0,0,0,4,0,0,0,220,0,0,0,148,0,0,0,80,0,0,0,20,0,0,0,0,0,14,0,26,0,20,0,16,0,12,0,11,0,4,0,14,0,0,0,28,0,0,0,0,0,0,9,28,0,0,0,32,0,0,0,1,0,0,0,0,0,6,0,8,0,4,0,6,0,0,0,0,0,128,63,1,0,0,0,10,0,0,0,1,0,0,0,9,0,0,0,206,255,255,255,16,0,0,0,0,0,0,8,12,0,0,0,16,0,0,0,212,250,255,255,1,0,0,0,9,0,0,0,3,0,0,0,8,0,0,0,3,0,0,0,2,0,0,0,0,0,14,0,20,0,0,0,16,0,12,0,11,0,4,0,14,0,0,0,16,0,0,0,0,0,0,8,16,0,0,0,20,0,0,0,186,255,255,255,0,0,0,1,1,0,0,0,8,0,0,0,3,0,0,0,7,0,0,0,4,0,0,0,1,0,0,0,0,0,14,0,22,0,0,0,16,0,12,0,11,0,4,0,14,0,0,0,24,0,0,0,0,0,0,8,24,0,0,0,28,0,0,0,0,0,6,0,8,0,7,0,6,0,0,0,0,0,0,1,1,0,0,0,7,0,0,0,3,0,0,0,0,0,0,0,5,0,0,0,6,0,0,0,1,0,0,0,10,0,0,0,1,0,0,0,0,0,0,0,11,0,0,0,68,4,0,0,196,3,0,0,96,3,0,0,16,3,0,0,192,2,0,0,116,2,0,0,16,2,0,0,124,1,0,0,224,0,0,0,96,0,0,0,4,0,0,0,254,251,255,255,0,0,0,1,20,0,0,0,28,0,0,0,28,0,0,0,11,0,0,0,52,0,0,0,2,0,0,0,255,255,255,255,3,0,0,0,232,251,255,255,27,0,0,0,83,116,97,116,101,102,117,108,80,97,114,116,105,116,105,111,110,101,100,67,97,108,108,95,49,58,48,0,2,0,0,0,1,0,0,0,3,0,0,0,86,252,255,255,0,0,0,1,20,0,0,0,28,0,0,0,28,0,0,0,10,0,0,0,88,0,0,0,2,0,0,0,255,255,255,255,3,0,0,0,64,252,255,255,60,0,0,0,115,101,113,117,101,110,116,105,97,108,95,49,47,100,101,110,115,101,95,50,95,49,47,77,97,116,77,117,108,59,115,101,113,117,101,110,116,105,97,108,95,49,47,100,101,110,115,101,95,50,95,49,47,66,105,97,115,65,100,100,0,0,0,0,2,0,0,0,1,0,0,0,3,0,0,0,210,252,255,255,0,0,0,1,20,0,0,0,28,0,0,0,28,0,0,0,9,0,0,0,116,0,0,0,2,0,0,0,255,255,255,255,16,0,0,0,188,252,255,255,88,0,0,0,115,101,113,117,101,110,116,105,97,108,95,49,47,100,101,110,115,101,95,49,95,50,47,77,97,116,77,117,108,59,115,101,113,117,101,110,116,105,97,108,95,49,47,100,101,110,115,101,95,49,95,50,47,82,101,108,117,59,115,101,113,117,101,110,116,105,97,108,95,49,47,100,101,110,115,101,95,49,95,50,47,66,105,97,115,65,100,100,0,0,0,0,2,0,0,0,1,0,0,0,16,0,0,0,106,253,255,255,0,0,0,1,20,0,0,0,28,0,0,0,28,0,0,0,8,0,0,0,108,0,0,0,2,0,0,0,255,255,255,255,16,0,0,0,84,253,255,255,82,0,0,0,115,101,113,117,101,110,116,105,97,108,95,49,47,100,101,110,115,101,95,49,47,77,97,116,77,117,108,59,115,101,113,117,101,110,116,105,97,108,95,49,47,100,101,110,115,101,95,49,47,82,101,108,117,59,115,101,113,117,101,110,116,105,97,108,95,49,47,100,101,110,115,101,95,49,47,66,105,97,115,65,100,100,0,0,2,0,0,0,1,0,0,0,16,0,0,0,118,254,255,255,0,0,0,1,16,0,0,0,16,0,0,0,7,0,0,0,68,0,0,0,212,253,255,255,54,0,0,0,115,101,113,117,101,110,116,105,97,108,95,49,47,100,101,110,115,101,95,49,47,82,101,108,117,59,115,101,113,117,101,110,116,105,97,108,95,49,47,100,101,110,115,101,95,49,47,66,105,97,115,65,100,100,0,0,1,0,0,0,16,0,0,0,214,254,255,255,0,0,0,1,16,0,0,0,16,0,0,0,6,0,0,0,40,0,0,0,52,254,255,255,27,0,0,0,115,101,113,117,101,110,116,105,97,108,95,49,47,100,101,110,115,101,95,49,47,77,97,116,77,117,108,0,2,0,0,0,16,0,0,0,3,0,0,0,30,255,255,255,0,0,0,1,16,0,0,0,16,0,0,0,5,0,0,0,44,0,0,0,124,254,255,255,29,0,0,0,115,101,113,117,101,110,116,105,97,108,95,49,47,100,101,110,115,101,95,49,95,50,47,77,97,116,77,117,108,0,0,0,2,0,0,0,16,0,0,0,16,0,0,0,106,255,255,255,0,0,0,1,16,0,0,0,16,0,0,0,4,0,0,0,44,0,0,0,200,254,255,255,29,0,0,0,115,101,113,117,101,110,116,105,97,108,95,49,47,100,101,110,115,101,95,50,95,49,47,77,97,116,77,117,108,0,0,0,2,0,0,0,3,0,0,0,16,0,0,0,182,255,255,255,0,0,0,1,16,0,0,0,16,0,0,0,3,0,0,0,44,0,0,0,20,255,255,255,30,0,0,0,115,101,113,117,101,110,116,105,97,108,95,49,47,100,101,110,115,101,95,50,95,49,47,66,105,97,115,65,100,100,0,0,1,0,0,0,3,0,0,0,0,0,22,0,24,0,20,0,0,0,16,0,12,0,8,0,0,0,0,0,0,0,7,0,22,0,0,0,0,0,0,1,16,0,0,0,16,0,0,0,2,0,0,0,72,0,0,0,116,255,255,255,58,0,0,0,115,101,113,117,101,110,116,105,97,108,95,49,47,100,101,110,115,101,95,49,95,50,47,82,101,108,117,59,115,101,113,117,101,110,116,105,97,108,95,49,47,100,101,110,115,101,95,49,95,50,47,66,105,97,115,65,100,100,0,0,1,0,0,0,16,0,0,0,0,0,22,0,28,0,24,0,0,0,20,0,16,0,12,0,0,0,0,0,8,0,7,0,22,0,0,0,0,0,0,1,20,0,0,0,32,0,0,0,32,0,0,0,1,0,0,0,60,0,0,0,2,0,0,0,255,255,255,255,3,0,0,0,4,0,4,0,4,0,0,0,29,0,0,0,115,101,114,118,105,110,103,95,100,101,102,97,117,108,116,95,105,110,112,117,116,95,108,97,121,101,114,58,48,0,0,0,2,0,0,0,1,0,0,0,3,0,0,0,2,0,0,0,32,0,0,0,4,0,0,0,244,255,255,255,25,0,0,0,0,0,0,25,12,0,12,0,11,0,0,0,0,0,4,0,12,0,0,0,9,0,0,0,0,0,0,9};
const int gesture_model_tflite_len = 3736;